{
  "version": "1.0",
  "truncation": null,
  "padding": null,
  "added_tokens": [
    {
      "id": 0,
      "content": "[PAD]",
      "single_word": false,
      "lstrip": false,
      "rstrip": false,
      "normalized": false,
      "special": true
    },
    {
      "id": 1,
      "content": "[UNK]",
      "single_word": false,
      "lstrip": false,
      "rstrip": false,
      "normalized": false,
      "special": true
    },
    {
      "id": 2,
      "content": "[CLS]",
      "single_word": false,
      "lstrip": false,
      "rstrip": false,
      "normalized": false,
      "special": true
    },
    {
      "id": 3,
      "content": "[SEP]",
      "single_word": false,
      "lstrip": false,
      "rstrip": false,
      "normalized": false,
      "special": true
    },
    {
      "id": 4,
      "content": "[MASK]",
      "single_word": false,
      "lstrip": false,
      "rstrip": false,
      "normalized": false,
      "special": true
    }
  ],
  "normalizer": null,
  "pre_tokenizer": {
    "type": "ByteLevel",
    "add_prefix_space": true,
    "trim_offsets": true,
    "use_regex": true
  },
  "post_processor": null,
  "decoder": {
    "type": "ByteLevel",
    "add_prefix_space": true,
    "trim_offsets": true,
    "use_regex": true
  },
  "model": {
    "type": "BPE",
    "dropout": null,
    "unk_token": "[UNK]",
    "continuing_subword_prefix": null,
    "end_of_word_suffix": null,
    "fuse_unk": false,
    "byte_fallback": false,
    "ignore_merges": false,
    "vocab": {
      "[PAD]": 0,
      "[UNK]": 1,
      "[CLS]": 2,
      "[SEP]": 3,
      "[MASK]": 4,
      "!": 5,
      "\"": 6,
      "#": 7,
      "&": 8,
      "(": 9,
      ")": 10,
      ",": 11,
      "-": 12,
      ".": 13,
      "/": 14,
      "0": 15,
      "1": 16,
      "2": 17,
      "3": 18,
      "4": 19,
      "5": 20,
      "6": 21,
      "9": 22,
      ":": 23,
      ";": 24,
      "<": 25,
      "=": 26,
      ">": 27,
      "A": 28,
      "B": 29,
      "C": 30,
      "D": 31,
      "E": 32,
      "F": 33,
      "H": 34,
      "K": 35,
      "L": 36,
      "M": 37,
      "N": 38,
      "O": 39,
      "R": 40,
      "S": 41,
      "T": 42,
      "U": 43,
      "V": 44,
      "[": 45,
      "]": 46,
      "_": 47,
      "a": 48,
      "b": 49,
      "c": 50,
      "d": 51,
      "e": 52,
      "f": 53,
      "g": 54,
      "h": 55,
      "i": 56,
      "j": 57,
      "k": 58,
      "l": 59,
      "m": 60,
      "n": 61,
      "o": 62,
      "p": 63,
      "q": 64,
      "r": 65,
      "s": 66,
      "t": 67,
      "u": 68,
      "v": 69,
      "w": 70,
      "x": 71,
      "y": 72,
      "z": 73,
      "{": 74,
      "}": 75,
      "Ċ": 76,
      "č": 77,
      "Ġ": 78,
      "čĊ": 79,
      "on": 80,
      "re": 81,
      "Ġ{": 82,
      "Ġf": 83,
      "tr": 84,
      "Ġ}": 85,
      "in": 86,
      "or": 87,
      "er": 88,
      "es": 89,
      "ti": 90,
      "te": 91,
      "Ġs": 92,
      "Ġfn": 93,
      "tion": 94,
      "el": 95,
      "ĠS": 96,
      "en": 97,
      "et": 98,
      "ol": 99,
      "ĠR": 100,
      "Ġb": 101,
      "Ġc": 102,
      "Ġm": 103,
      "trin": 104,
      "tring": 105,
      "()": 106,
      "al": 107,
      "as": 108,
      "Ġi": 109,
      "Ġp": 110,
      "Ġu": 111,
      "Ġre": 112,
      "ory": 113,
      "->": 114,
      "..": 115,
      "32": 116,
      "ap": 117,
      "ction": 118,
      "em": 119,
      "mp": 120,
      "ok": 121,
      "ool": 122,
      "Ġ=": 123,
      "ĠC": 124,
      "Ġ->": 125,
      "tex": 126,
      "ĠRes": 127,
      "64": 128,
      "::": 129,
      "an": 130,
      "ct": 131,
      "it": 132,
      "le": 133,
      "lt": 134,
      "un": 135,
      "ult": 136,
      "ĠT": 137,
      "Ġst": 138,
      "oken": 139,
      "ĠResult": 140,
      "\",": 141,
      "(\"": 142,
      "Has": 143,
      "Map": 144,
      "String": 145,
      "ag": 146,
      "ar": 147,
      "at": 148,
      "se": 149,
      "st": 150,
      "ub": 151,
      "um": 152,
      "ve": 153,
      "Ġ\"": 154,
      "ĠM": 155,
      "ĠO": 156,
      "Ġv": 157,
      "ontex": 158,
      "tru": 159,
      "eri": 160,
      "ess": 161,
      "elf": 162,
      "ĠString": 163,
      "Ġcon": 164,
      "Ġpub": 165,
      "emory": 166,
      "Hash": 167,
      "ontext": 168,
      "\")": 169,
      "(&": 170,
      "am": 171,
      "ch": 172,
      "ie": 173,
      "lo": 174,
      "ore": 175,
      "omp": 176,
      "ption": 177,
      "ror": 178,
      "self": 179,
      "ur": 180,
      "wor": 181,
      "ĠA": 182,
      "ĠB": 183,
      "Ġ..": 184,
      "retr": 185,
      "Ġ{}": 186,
      "Ġstru": 187,
      "Ġbool": 188,
      "all": 189,
      "Ġid": 190,
      "Ġret": 191,
      "unction": 192,
      "age": 193,
      "ĠOption": 194,
      "essage": 195,
      "HashMap": 196,
      "ompa": 197,
      "Ġ...": 198,
      "retrie": 199,
      "Ġstruct": 200,
      "),": 201,
      "Call": 202,
      "Er": 203,
      "St": 204,
      "Set": 205,
      "Tre": 206,
      "ain": 207,
      "ate": 208,
      "ait": 209,
      "context": 210,
      "dg": 211,
      "der": 212,
      "dle": 213,
      "ex": 214,
      "fi": 215,
      "fy": 216,
      "hi": 217,
      "han": 218,
      "ld": 219,
      "let": 220,
      "me": 221,
      "nc": 222,
      "ox": 223,
      "oun": 224,
      "ome": 225,
      "po": 226,
      "pas": 227,
      "qu": 228,
      "rc": 229,
      "ro": 230,
      "sy": 231,
      "swor": 232,
      "ty": 233,
      "token": 234,
      "ue": 235,
      "us": 236,
      "utex": 237,
      "udg": 238,
      "vi": 239,
      "Ġ<": 240,
      "ĠD": 241,
      "ĠN": 242,
      "Ġtr": 243,
      "Ġen": 244,
      "ĠEr": 245,
      "Ġhan": 246,
      "Ġlet": 247,
      "one": 248,
      "onfi": 249,
      "est": 250,
      "ello": 251,
      "ĠSome": 252,
      "ĠRe": 253,
      "Ġcompa": 254,
      "Ġmo": 255,
      "Ġmemory": 256,
      "Ġuse": 257,
      "oolCall": 258,
      "Ġ=>": 259,
      "ĠToken": 260,
      "ĠToolCall": 261,
      "Ġstd": 262,
      "story": 263,
      "ved": 264,
      "ĠMutex": 265,
      "Ġveri": 266,
      "urn": 267,
      "ĠBTre": 268,
      "Ġreturn": 269,
      "retrieved": 270,
      "history": 271,
      "passwor": 272,
      "udget": 273,
      "Ġtrait": 274,
      "Ġenum": 275,
      "ĠError": 276,
      "Ġhandle": 277,
      "onfig": 278,
      "Ġverify": 279,
      "ĠBTree": 280,
      "password": 281,
      "!(\"": 282,
      "!\")": 283,
      "#[": 284,
      ")]": 285,
      "09": 286,
      "409": 287,
      ">;": 288,
      "AC": 289,
      "AU": 290,
      "Arc": 291,
      "Budget": 292,
      "Context": 293,
      "De": 294,
      "EF": 295,
      "EN": 296,
      "En": 297,
      "Function": 298,
      "Foun": 299,
      "HE": 300,
      "Hello": 301,
      "KEN": 302,
      "LT": 303,
      "Man": 304,
      "Message": 305,
      "OKEN": 306,
      "Sum": 307,
      "Token": 308,
      "TOKEN": 309,
      "Ve": 310,
      "ak": 311,
      "ax": 312,
      "ay": 313,
      "are": 314,
      "ati": 315,
      "ation": 316,
      "bu": 317,
      "ble": 318,
      "ce": 319,
      "cel": 320,
      "col": 321,
      "can": 322,
      "call": 323,
      "coun": 324,
      "config": 325,
      "db": 326,
      "del": 327,
      "deri": 328,
      "dContext": 329,
      "ew": 330,
      "ect": 331,
      "function": 332,
      "gr": 333,
      "gin": 334,
      "gum": 335,
      "gam": 336,
      "ha": 337,
      "har": 338,
      "hat": 339,
      "hello": 340,
      "is": 341,
      "iz": 342,
      "ion": 343,
      "ire": 344,
      "ies": 345,
      "iel": 346,
      "ild": 347,
      "jit": 348,
      "ject": 349,
      "ln": 350,
      "lus": 351,
      "lone": 352,
      "lay": 353,
      "ma": 354,
      "mt": 355,
      "map": 356,
      "mar": 357,
      "memory": 358,
      "message": 359,
      "nt": 360,
      "nam": 361,
      "nder": 362,
      "new": 363,
      "ot": 364,
      "pe": 365,
      "pp": 366,
      "pu": 367,
      "pon": 368,
      "per": 369,
      "pro": 370,
      "pare": 371,
      "pha": 372,
      "pire": 373,
      "play": 374,
      "rin": 375,
      "rol": 376,
      "rate": 377,
      "ss": 378,
      "str": 379,
      "ste": 380,
      "sit": 381,
      "sess": 382,
      "sation": 383,
      "ts": 384,
      "tin": 385,
      "ter": 386,
      "tmp": 387,
      "tool": 388,
      "tat": 389,
      "test": 390,
      "tln": 391,
      "ure": 392,
      "uild": 393,
      "uper": 394,
      "ver": 395,
      "val": 396,
      "van": 397,
      "wit": 398,
      "ync": 399,
      "yiel": 400,
      "Ġ&": 401,
      "Ġ5": 402,
      "Ġin": 403,
      "Ġer": 404,
      "Ġte": 405,
      "Ġal": 406,
      "Ġas": 407,
      "Ġok": 408,
      "Ġar": 409,
      "Ġtru": 410,
      "ĠHash": 411,
      "Ġlo": 412,
      "Ġwor": 413,
      "ĠHashMap": 414,
      "Ġex": 415,
      "Ġty": 416,
      "Ġtoken": 417,
      "Ġ#[": 418,
      "Ġ409": 419,
      "ĠVe": 420,
      "Ġgam": 421,
      "Ġjit": 422,
      "Ġnam": 423,
      "Ġrol": 424,
      "Ġyiel": 425,
      "ream": 426,
      "reak": 427,
      "repare": 428,
      "Ġfin": 429,
      "Ġfor": 430,
      "Ġfet": 431,
      "Ġfunction": 432,
      "Ġflus": 433,
      "Ġfmt": 434,
      "Ġ};": 435,
      "ories": 436,
      "ery": 437,
      "erat": 438,
      "ervi": 439,
      "tity": 440,
      "tent": 441,
      "Ġself": 442,
      "Ġsuper": 443,
      "ĠSeri": 444,
      "ĠStat": 445,
      "ĠServi": 446,
      "ents": 447,
      "eta": 448,
      "Ġbox": 449,
      "Ġbudget": 450,
      "Ġbuild": 451,
      "Ġbreak": 452,
      "Ġbeta": 453,
      "Ġchar": 454,
      "Ġcrate": 455,
      "Ġmem": 456,
      "Ġmat": 457,
      "Ġmain": 458,
      "Ġmax": 459,
      "alue": 460,
      "aliz": 461,
      "Ġimp": 462,
      "Ġpro": 463,
      "Ġprin": 464,
      "Ġprepare": 465,
      "Ġreq": 466,
      "Ġrele": 467,
      "Ġrepo": 468,
      "Ġrender": 469,
      "aph": 470,
      "ctions": 471,
      "ctionSum": 472,
      "emble": 473,
      "mperat": 474,
      "ĠContext": 475,
      "ĠCompa": 476,
      "ĠConfig": 477,
      "ĠCAC": 478,
      "ĠChat": 479,
      "ĠClone": 480,
      "ĠRespon": 481,
      "lections": 482,
      "ĠTex": 483,
      "Ġstore": 484,
      "Ġstati": 485,
      "Ġstream": 486,
      "(\"/": 487,
      "ager": 488,
      "arch": 489,
      "search": 490,
      "store": 491,
      "ĠMemory": 492,
      "ĠMessage": 493,
      "ĠOk": 494,
      "Ġvalue": 495,
      "Ġconst": 496,
      "Ġcontin": 497,
      "Ġconver": 498,
      "Ġcontent": 499,
      "\"),": 500,
      "\");": 501,
      "url": 502,
      "ĠArc": 503,
      "ĠApp": 504,
      "ĠAss": 505,
      "ĠBox": 506,
      "Ġretain": 507,
      "Ġ...;": 508,
      "retrieval": 509,
      "Store": 510,
      "State": 511,
      "posit": 512,
      "quest": 513,
      "query": 514,
      "sync": 515,
      "syste": 516,
      "tokens": 517,
      "vider": 518,
      "Ġ</": 519,
      "ĠDEF": 520,
      "ĠDis": 521,
      "ĠNone": 522,
      "ĠNot": 523,
      "ĠReposit": 524,
      "ĠRequest": 525,
      "Ġcompaction": 526,
      "Ġcompact": 527,
      "Ġmove": 528,
      "Ġmodel": 529,
      "ĠTokenBudget": 530,
      "ĠToolCallFunction": 531,
      "ĠBTreeMap": 532,
      "ĠBTreeSet": 533,
      "AULT": 534,
      "Debu": 535,
      "Entity": 536,
      "Found": 537,
      "Manager": 538,
      "TOKENS": 539,
      "collections": 540,
      "cancel": 541,
      "calls": 542,
      "counter": 543,
      "derive": 544,
      "graph": 545,
      "guments": 546,
      "mary": 547,
      "put": 548,
      "project": 549,
      "pires": 550,
      "session": 551,
      "vant": 552,
      "with": 553,
      "Ġinput": 554,
      "Ġerror": 555,
      "Ġtemperat": 556,
      "Ġalpha": 557,
      "Ġasync": 558,
      "Ġarguments": 559,
      "Ġtrue": 560,
      "ĠHashSet": 561,
      "Ġlogin": 562,
      "Ġworld": 563,
      "Ġexpires": 564,
      "Ġtype": 565,
      "Ġ4096": 566,
      "ĠVec": 567,
      "Ġgamma": 568,
      "Ġname": 569,
      "Ġrole": 570,
      "Ġyield": 571,
      "Ġfind": 572,
      "Ġfetch": 573,
      "Ġflush": 574,
      "ĠSerializ": 575,
      "ĠStatus": 576,
      "ĠService": 577,
      "Ġmemories": 578,
      "Ġmatch": 579,
      "Ġimpl": 580,
      "Ġprovider": 581,
      "Ġprintln": 582,
      "Ġrelevant": 583,
      "ctionSummary": 584,
      "embledContext": 585,
      "ĠContextManager": 586,
      "ĠCompactionSummary": 587,
      "ĠCACHE": 588,
      "ĠChatMessage": 589,
      "ĠResponse": 590,
      "ĠText": 591,
      "Ġstatic": 592,
      "ĠMemoryStore": 593,
      "Ġcontinue": 594,
      "Ġconversation": 595,
      "ĠAppState": 596,
      "ĠAssembledContext": 597,
      "system": 598,
      "ĠDEFAULT": 599,
      "ĠDisplay": 600,
      "ĠNotFound": 601,
      "ĠRepository": 602,
      "Debug": 603,
      "Ġtemperature": 604,
      "ĠSerialize": 605
    },
    "merges": [
      [
        "č",
        "Ċ"
      ],
      [
        "o",
        "n"
      ],
      [
        "r",
        "e"
      ],
      [
        "Ġ",
        "{"
      ],
      [
        "Ġ",
        "f"
      ],
      [
        "t",
        "r"
      ],
      [
        "Ġ",
        "}"
      ],
      [
        "i",
        "n"
      ],
      [
        "o",
        "r"
      ],
      [
        "e",
        "r"
      ],
      [
        "e",
        "s"
      ],
      [
        "t",
        "i"
      ],
      [
        "t",
        "e"
      ],
      [
        "Ġ",
        "s"
      ],
      [
        "Ġf",
        "n"
      ],
      [
        "ti",
        "on"
      ],
      [
        "e",
        "l"
      ],
      [
        "Ġ",
        "S"
      ],
      [
        "e",
        "n"
      ],
      [
        "e",
        "t"
      ],
      [
        "o",
        "l"
      ],
      [
        "Ġ",
        "R"
      ],
      [
        "Ġ",
        "b"
      ],
      [
        "Ġ",
        "c"
      ],
      [
        "Ġ",
        "m"
      ],
      [
        "tr",
        "in"
      ],
      [
        "trin",
        "g"
      ],
      [
        "(",
        ")"
      ],
      [
        "a",
        "l"
      ],
      [
        "a",
        "s"
      ],
      [
        "Ġ",
        "i"
      ],
      [
        "Ġ",
        "p"
      ],
      [
        "Ġ",
        "u"
      ],
      [
        "Ġ",
        "re"
      ],
      [
        "or",
        "y"
      ],
      [
        "-",
        ">"
      ],
      [
        ".",
        "."
      ],
      [
        "3",
        "2"
      ],
      [
        "a",
        "p"
      ],
      [
        "c",
        "tion"
      ],
      [
        "e",
        "m"
      ],
      [
        "m",
        "p"
      ],
      [
        "o",
        "k"
      ],
      [
        "o",
        "ol"
      ],
      [
        "Ġ",
        "="
      ],
      [
        "Ġ",
        "C"
      ],
      [
        "Ġ",
        "->"
      ],
      [
        "te",
        "x"
      ],
      [
        "ĠR",
        "es"
      ],
      [
        "6",
        "4"
      ],
      [
        ":",
        ":"
      ],
      [
        "a",
        "n"
      ],
      [
        "c",
        "t"
      ],
      [
        "i",
        "t"
      ],
      [
        "l",
        "e"
      ],
      [
        "l",
        "t"
      ],
      [
        "u",
        "n"
      ],
      [
        "u",
        "lt"
      ],
      [
        "Ġ",
        "T"
      ],
      [
        "Ġs",
        "t"
      ],
      [
        "ok",
        "en"
      ],
      [
        "ĠRes",
        "ult"
      ],
      [
        "\"",
        ","
      ],
      [
        "(",
        "\""
      ],
      [
        "H",
        "as"
      ],
      [
        "M",
        "ap"
      ],
      [
        "S",
        "tring"
      ],
      [
        "a",
        "g"
      ],
      [
        "a",
        "r"
      ],
      [
        "a",
        "t"
      ],
      [
        "s",
        "e"
      ],
      [
        "s",
        "t"
      ],
      [
        "u",
        "b"
      ],
      [
        "u",
        "m"
      ],
      [
        "v",
        "e"
      ],
      [
        "Ġ",
        "\""
      ],
      [
        "Ġ",
        "M"
      ],
      [
        "Ġ",
        "O"
      ],
      [
        "Ġ",
        "v"
      ],
      [
        "on",
        "tex"
      ],
      [
        "tr",
        "u"
      ],
      [
        "er",
        "i"
      ],
      [
        "es",
        "s"
      ],
      [
        "el",
        "f"
      ],
      [
        "ĠS",
        "tring"
      ],
      [
        "Ġc",
        "on"
      ],
      [
        "Ġp",
        "ub"
      ],
      [
        "em",
        "ory"
      ],
      [
        "Has",
        "h"
      ],
      [
        "ontex",
        "t"
      ],
      [
        "\"",
        ")"
      ],
      [
        "(",
        "&"
      ],
      [
        "a",
        "m"
      ],
      [
        "c",
        "h"
      ],
      [
        "i",
        "e"
      ],
      [
        "l",
        "o"
      ],
      [
        "o",
        "re"
      ],
      [
        "o",
        "mp"
      ],
      [
        "p",
        "tion"
      ],
      [
        "r",
        "or"
      ],
      [
        "s",
        "elf"
      ],
      [
        "u",
        "r"
      ],
      [
        "w",
        "or"
      ],
      [
        "Ġ",
        "A"
      ],
      [
        "Ġ",
        "B"
      ],
      [
        "Ġ",
        ".."
      ],
      [
        "re",
        "tr"
      ],
      [
        "Ġ{",
        "}"
      ],
      [
        "Ġs",
        "tru"
      ],
      [
        "Ġb",
        "ool"
      ],
      [
        "al",
        "l"
      ],
      [
        "Ġi",
        "d"
      ],
      [
        "Ġre",
        "t"
      ],
      [
        "un",
        "ction"
      ],
      [
        "ag",
        "e"
      ],
      [
        "ĠO",
        "ption"
      ],
      [
        "ess",
        "age"
      ],
      [
        "Hash",
        "Map"
      ],
      [
        "omp",
        "a"
      ],
      [
        "Ġ..",
        "."
      ],
      [
        "retr",
        "ie"
      ],
      [
        "Ġstru",
        "ct"
      ],
      [
        ")",
        ","
      ],
      [
        "C",
        "all"
      ],
      [
        "E",
        "r"
      ],
      [
        "S",
        "t"
      ],
      [
        "S",
        "et"
      ],
      [
        "T",
        "re"
      ],
      [
        "a",
        "in"
      ],
      [
        "a",
        "te"
      ],
      [
        "a",
        "it"
      ],
      [
        "c",
        "ontext"
      ],
      [
        "d",
        "g"
      ],
      [
        "d",
        "er"
      ],
      [
        "d",
        "le"
      ],
      [
        "e",
        "x"
      ],
      [
        "f",
        "i"
      ],
      [
        "f",
        "y"
      ],
      [
        "h",
        "i"
      ],
      [
        "h",
        "an"
      ],
      [
        "l",
        "d"
      ],
      [
        "l",
        "et"
      ],
      [
        "m",
        "e"
      ],
      [
        "n",
        "c"
      ],
      [
        "o",
        "x"
      ],
      [
        "o",
        "un"
      ],
      [
        "o",
        "me"
      ],
      [
        "p",
        "o"
      ],
      [
        "p",
        "as"
      ],
      [
        "q",
        "u"
      ],
      [
        "r",
        "c"
      ],
      [
        "r",
        "o"
      ],
      [
        "s",
        "y"
      ],
      [
        "s",
        "wor"
      ],
      [
        "t",
        "y"
      ],
      [
        "t",
        "oken"
      ],
      [
        "u",
        "e"
      ],
      [
        "u",
        "s"
      ],
      [
        "u",
        "tex"
      ],
      [
        "u",
        "dg"
      ],
      [
        "v",
        "i"
      ],
      [
        "Ġ",
        "<"
      ],
      [
        "Ġ",
        "D"
      ],
      [
        "Ġ",
        "N"
      ],
      [
        "Ġ",
        "tr"
      ],
      [
        "Ġ",
        "en"
      ],
      [
        "Ġ",
        "Er"
      ],
      [
        "Ġ",
        "han"
      ],
      [
        "Ġ",
        "let"
      ],
      [
        "on",
        "e"
      ],
      [
        "on",
        "fi"
      ],
      [
        "es",
        "t"
      ],
      [
        "el",
        "lo"
      ],
      [
        "ĠS",
        "ome"
      ],
      [
        "ĠR",
        "e"
      ],
      [
        "Ġc",
        "ompa"
      ],
      [
        "Ġm",
        "o"
      ],
      [
        "Ġm",
        "emory"
      ],
      [
        "Ġu",
        "se"
      ],
      [
        "ool",
        "Call"
      ],
      [
        "Ġ=",
        ">"
      ],
      [
        "ĠT",
        "oken"
      ],
      [
        "ĠT",
        "oolCall"
      ],
      [
        "Ġst",
        "d"
      ],
      [
        "st",
        "ory"
      ],
      [
        "ve",
        "d"
      ],
      [
        "ĠM",
        "utex"
      ],
      [
        "Ġv",
        "eri"
      ],
      [
        "ur",
        "n"
      ],
      [
        "ĠB",
        "Tre"
      ],
      [
        "Ġret",
        "urn"
      ],
      [
        "retrie",
        "ved"
      ],
      [
        "hi",
        "story"
      ],
      [
        "pas",
        "swor"
      ],
      [
        "udg",
        "et"
      ],
      [
        "Ġtr",
        "ait"
      ],
      [
        "Ġen",
        "um"
      ],
      [
        "ĠEr",
        "ror"
      ],
      [
        "Ġhan",
        "dle"
      ],
      [
        "onfi",
        "g"
      ],
      [
        "Ġveri",
        "fy"
      ],
      [
        "ĠBTre",
        "e"
      ],
      [
        "passwor",
        "d"
      ],
      [
        "!",
        "(\""
      ],
      [
        "!",
        "\")"
      ],
      [
        "#",
        "["
      ],
      [
        ")",
        "]"
      ],
      [
        "0",
        "9"
      ],
      [
        "4",
        "09"
      ],
      [
        ">",
        ";"
      ],
      [
        "A",
        "C"
      ],
      [
        "A",
        "U"
      ],
      [
        "A",
        "rc"
      ],
      [
        "B",
        "udget"
      ],
      [
        "C",
        "ontext"
      ],
      [
        "D",
        "e"
      ],
      [
        "E",
        "F"
      ],
      [
        "E",
        "N"
      ],
      [
        "E",
        "n"
      ],
      [
        "F",
        "unction"
      ],
      [
        "F",
        "oun"
      ],
      [
        "H",
        "E"
      ],
      [
        "H",
        "ello"
      ],
      [
        "K",
        "EN"
      ],
      [
        "L",
        "T"
      ],
      [
        "M",
        "an"
      ],
      [
        "M",
        "essage"
      ],
      [
        "O",
        "KEN"
      ],
      [
        "S",
        "um"
      ],
      [
        "T",
        "oken"
      ],
      [
        "T",
        "OKEN"
      ],
      [
        "V",
        "e"
      ],
      [
        "a",
        "k"
      ],
      [
        "a",
        "x"
      ],
      [
        "a",
        "y"
      ],
      [
        "a",
        "re"
      ],
      [
        "a",
        "ti"
      ],
      [
        "a",
        "tion"
      ],
      [
        "b",
        "u"
      ],
      [
        "b",
        "le"
      ],
      [
        "c",
        "e"
      ],
      [
        "c",
        "el"
      ],
      [
        "c",
        "ol"
      ],
      [
        "c",
        "an"
      ],
      [
        "c",
        "all"
      ],
      [
        "c",
        "oun"
      ],
      [
        "c",
        "onfig"
      ],
      [
        "d",
        "b"
      ],
      [
        "d",
        "el"
      ],
      [
        "d",
        "eri"
      ],
      [
        "d",
        "Context"
      ],
      [
        "e",
        "w"
      ],
      [
        "e",
        "ct"
      ],
      [
        "f",
        "unction"
      ],
      [
        "g",
        "r"
      ],
      [
        "g",
        "in"
      ],
      [
        "g",
        "um"
      ],
      [
        "g",
        "am"
      ],
      [
        "h",
        "a"
      ],
      [
        "h",
        "ar"
      ],
      [
        "h",
        "at"
      ],
      [
        "h",
        "ello"
      ],
      [
        "i",
        "s"
      ],
      [
        "i",
        "z"
      ],
      [
        "i",
        "on"
      ],
      [
        "i",
        "re"
      ],
      [
        "i",
        "es"
      ],
      [
        "i",
        "el"
      ],
      [
        "i",
        "ld"
      ],
      [
        "j",
        "it"
      ],
      [
        "j",
        "ect"
      ],
      [
        "l",
        "n"
      ],
      [
        "l",
        "us"
      ],
      [
        "l",
        "one"
      ],
      [
        "l",
        "ay"
      ],
      [
        "m",
        "a"
      ],
      [
        "m",
        "t"
      ],
      [
        "m",
        "ap"
      ],
      [
        "m",
        "ar"
      ],
      [
        "m",
        "emory"
      ],
      [
        "m",
        "essage"
      ],
      [
        "n",
        "t"
      ],
      [
        "n",
        "am"
      ],
      [
        "n",
        "der"
      ],
      [
        "n",
        "ew"
      ],
      [
        "o",
        "t"
      ],
      [
        "p",
        "e"
      ],
      [
        "p",
        "p"
      ],
      [
        "p",
        "u"
      ],
      [
        "p",
        "on"
      ],
      [
        "p",
        "er"
      ],
      [
        "p",
        "ro"
      ],
      [
        "p",
        "are"
      ],
      [
        "p",
        "ha"
      ],
      [
        "p",
        "ire"
      ],
      [
        "p",
        "lay"
      ],
      [
        "r",
        "in"
      ],
      [
        "r",
        "ol"
      ],
      [
        "r",
        "ate"
      ],
      [
        "s",
        "s"
      ],
      [
        "s",
        "tr"
      ],
      [
        "s",
        "te"
      ],
      [
        "s",
        "it"
      ],
      [
        "s",
        "ess"
      ],
      [
        "s",
        "ation"
      ],
      [
        "t",
        "s"
      ],
      [
        "t",
        "in"
      ],
      [
        "t",
        "er"
      ],
      [
        "t",
        "mp"
      ],
      [
        "t",
        "ool"
      ],
      [
        "t",
        "at"
      ],
      [
        "t",
        "est"
      ],
      [
        "t",
        "ln"
      ],
      [
        "u",
        "re"
      ],
      [
        "u",
        "ild"
      ],
      [
        "u",
        "per"
      ],
      [
        "v",
        "er"
      ],
      [
        "v",
        "al"
      ],
      [
        "v",
        "an"
      ],
      [
        "w",
        "it"
      ],
      [
        "y",
        "nc"
      ],
      [
        "y",
        "iel"
      ],
      [
        "Ġ",
        "&"
      ],
      [
        "Ġ",
        "5"
      ],
      [
        "Ġ",
        "in"
      ],
      [
        "Ġ",
        "er"
      ],
      [
        "Ġ",
        "te"
      ],
      [
        "Ġ",
        "al"
      ],
      [
        "Ġ",
        "as"
      ],
      [
        "Ġ",
        "ok"
      ],
      [
        "Ġ",
        "ar"
      ],
      [
        "Ġ",
        "tru"
      ],
      [
        "Ġ",
        "Hash"
      ],
      [
        "Ġ",
        "lo"
      ],
      [
        "Ġ",
        "wor"
      ],
      [
        "Ġ",
        "HashMap"
      ],
      [
        "Ġ",
        "ex"
      ],
      [
        "Ġ",
        "ty"
      ],
      [
        "Ġ",
        "token"
      ],
      [
        "Ġ",
        "#["
      ],
      [
        "Ġ",
        "409"
      ],
      [
        "Ġ",
        "Ve"
      ],
      [
        "Ġ",
        "gam"
      ],
      [
        "Ġ",
        "jit"
      ],
      [
        "Ġ",
        "nam"
      ],
      [
        "Ġ",
        "rol"
      ],
      [
        "Ġ",
        "yiel"
      ],
      [
        "re",
        "am"
      ],
      [
        "re",
        "ak"
      ],
      [
        "re",
        "pare"
      ],
      [
        "Ġf",
        "in"
      ],
      [
        "Ġf",
        "or"
      ],
      [
        "Ġf",
        "et"
      ],
      [
        "Ġf",
        "unction"
      ],
      [
        "Ġf",
        "lus"
      ],
      [
        "Ġf",
        "mt"
      ],
      [
        "Ġ}",
        ";"
      ],
      [
        "or",
        "ies"
      ],
      [
        "er",
        "y"
      ],
      [
        "er",
        "at"
      ],
      [
        "er",
        "vi"
      ],
      [
        "ti",
        "ty"
      ],
      [
        "te",
        "nt"
      ],
      [
        "Ġs",
        "elf"
      ],
      [
        "Ġs",
        "uper"
      ],
      [
        "ĠS",
        "eri"
      ],
      [
        "ĠS",
        "tat"
      ],
      [
        "ĠS",
        "ervi"
      ],
      [
        "en",
        "ts"
      ],
      [
        "et",
        "a"
      ],
      [
        "Ġb",
        "ox"
      ],
      [
        "Ġb",
        "udget"
      ],
      [
        "Ġb",
        "uild"
      ],
      [
        "Ġb",
        "reak"
      ],
      [
        "Ġb",
        "eta"
      ],
      [
        "Ġc",
        "har"
      ],
      [
        "Ġc",
        "rate"
      ],
      [
        "Ġm",
        "em"
      ],
      [
        "Ġm",
        "at"
      ],
      [
        "Ġm",
        "ain"
      ],
      [
        "Ġm",
        "ax"
      ],
      [
        "al",
        "ue"
      ],
      [
        "al",
        "iz"
      ],
      [
        "Ġi",
        "mp"
      ],
      [
        "Ġp",
        "ro"
      ],
      [
        "Ġp",
        "rin"
      ],
      [
        "Ġp",
        "repare"
      ],
      [
        "Ġre",
        "q"
      ],
      [
        "Ġre",
        "le"
      ],
      [
        "Ġre",
        "po"
      ],
      [
        "Ġre",
        "nder"
      ],
      [
        "ap",
        "h"
      ],
      [
        "ction",
        "s"
      ],
      [
        "ction",
        "Sum"
      ],
      [
        "em",
        "ble"
      ],
      [
        "mp",
        "erat"
      ],
      [
        "ĠC",
        "ontext"
      ],
      [
        "ĠC",
        "ompa"
      ],
      [
        "ĠC",
        "onfig"
      ],
      [
        "ĠC",
        "AC"
      ],
      [
        "ĠC",
        "hat"
      ],
      [
        "ĠC",
        "lone"
      ],
      [
        "ĠRes",
        "pon"
      ],
      [
        "le",
        "ctions"
      ],
      [
        "ĠT",
        "ex"
      ],
      [
        "Ġst",
        "ore"
      ],
      [
        "Ġst",
        "ati"
      ],
      [
        "Ġst",
        "ream"
      ],
      [
        "(\"",
        "/"
      ],
      [
        "ag",
        "er"
      ],
      [
        "ar",
        "ch"
      ],
      [
        "se",
        "arch"
      ],
      [
        "st",
        "ore"
      ],
      [
        "ĠM",
        "emory"
      ],
      [
        "ĠM",
        "essage"
      ],
      [
        "ĠO",
        "k"
      ],
      [
        "Ġv",
        "alue"
      ],
      [
        "Ġcon",
        "st"
      ],
      [
        "Ġcon",
        "tin"
      ],
      [
        "Ġcon",
        "ver"
      ],
      [
        "Ġcon",
        "tent"
      ],
      [
        "\")",
        ","
      ],
      [
        "\")",
        ";"
      ],
      [
        "ur",
        "l"
      ],
      [
        "ĠA",
        "rc"
      ],
      [
        "ĠA",
        "pp"
      ],
      [
        "ĠA",
        "ss"
      ],
      [
        "ĠB",
        "ox"
      ],
      [
        "Ġret",
        "ain"
      ],
      [
        "Ġ...",
        ";"
      ],
      [
        "retrie",
        "val"
      ],
      [
        "St",
        "ore"
      ],
      [
        "St",
        "ate"
      ],
      [
        "po",
        "sit"
      ],
      [
        "qu",
        "est"
      ],
      [
        "qu",
        "ery"
      ],
      [
        "sy",
        "nc"
      ],
      [
        "sy",
        "ste"
      ],
      [
        "token",
        "s"
      ],
      [
        "vi",
        "der"
      ],
      [
        "Ġ<",
        "/"
      ],
      [
        "ĠD",
        "EF"
      ],
      [
        "ĠD",
        "is"
      ],
      [
        "ĠN",
        "one"
      ],
      [
        "ĠN",
        "ot"
      ],
      [
        "ĠRe",
        "posit"
      ],
      [
        "ĠRe",
        "quest"
      ],
      [
        "Ġcompa",
        "ction"
      ],
      [
        "Ġcompa",
        "ct"
      ],
      [
        "Ġmo",
        "ve"
      ],
      [
        "Ġmo",
        "del"
      ],
      [
        "ĠToken",
        "Budget"
      ],
      [
        "ĠToolCall",
        "Function"
      ],
      [
        "ĠBTree",
        "Map"
      ],
      [
        "ĠBTree",
        "Set"
      ],
      [
        "AU",
        "LT"
      ],
      [
        "De",
        "bu"
      ],
      [
        "En",
        "tity"
      ],
      [
        "Foun",
        "d"
      ],
      [
        "Man",
        "ager"
      ],
      [
        "TOKEN",
        "S"
      ],
      [
        "col",
        "lections"
      ],
      [
        "can",
        "cel"
      ],
      [
        "call",
        "s"
      ],
      [
        "coun",
        "ter"
      ],
      [
        "deri",
        "ve"
      ],
      [
        "gr",
        "aph"
      ],
      [
        "gum",
        "ents"
      ],
      [
        "mar",
        "y"
      ],
      [
        "pu",
        "t"
      ],
      [
        "pro",
        "ject"
      ],
      [
        "pire",
        "s"
      ],
      [
        "sess",
        "ion"
      ],
      [
        "van",
        "t"
      ],
      [
        "wit",
        "h"
      ],
      [
        "Ġin",
        "put"
      ],
      [
        "Ġer",
        "ror"
      ],
      [
        "Ġte",
        "mperat"
      ],
      [
        "Ġal",
        "pha"
      ],
      [
        "Ġas",
        "ync"
      ],
      [
        "Ġar",
        "guments"
      ],
      [
        "Ġtru",
        "e"
      ],
      [
        "ĠHash",
        "Set"
      ],
      [
        "Ġlo",
        "gin"
      ],
      [
        "Ġwor",
        "ld"
      ],
      [
        "Ġex",
        "pires"
      ],
      [
        "Ġty",
        "pe"
      ],
      [
        "Ġ409",
        "6"
      ],
      [
        "ĠVe",
        "c"
      ],
      [
        "Ġgam",
        "ma"
      ],
      [
        "Ġnam",
        "e"
      ],
      [
        "Ġrol",
        "e"
      ],
      [
        "Ġyiel",
        "d"
      ],
      [
        "Ġfin",
        "d"
      ],
      [
        "Ġfet",
        "ch"
      ],
      [
        "Ġflus",
        "h"
      ],
      [
        "ĠSeri",
        "aliz"
      ],
      [
        "ĠStat",
        "us"
      ],
      [
        "ĠServi",
        "ce"
      ],
      [
        "Ġmem",
        "ories"
      ],
      [
        "Ġmat",
        "ch"
      ],
      [
        "Ġimp",
        "l"
      ],
      [
        "Ġpro",
        "vider"
      ],
      [
        "Ġprin",
        "tln"
      ],
      [
        "Ġrele",
        "vant"
      ],
      [
        "ctionSum",
        "mary"
      ],
      [
        "emble",
        "dContext"
      ],
      [
        "ĠContext",
        "Manager"
      ],
      [
        "ĠCompa",
        "ctionSummary"
      ],
      [
        "ĠCAC",
        "HE"
      ],
      [
        "ĠChat",
        "Message"
      ],
      [
        "ĠRespon",
        "se"
      ],
      [
        "ĠTex",
        "t"
      ],
      [
        "Ġstati",
        "c"
      ],
      [
        "ĠMemory",
        "Store"
      ],
      [
        "Ġcontin",
        "ue"
      ],
      [
        "Ġconver",
        "sation"
      ],
      [
        "ĠApp",
        "State"
      ],
      [
        "ĠAss",
        "embledContext"
      ],
      [
        "syste",
        "m"
      ],
      [
        "ĠDEF",
        "AULT"
      ],
      [
        "ĠDis",
        "play"
      ],
      [
        "ĠNot",
        "Found"
      ],
      [
        "ĠReposit",
        "ory"
      ],
      [
        "Debu",
        "g"
      ],
      [
        "Ġtemperat",
        "ure"
      ],
      [
        "ĠSerializ",
        "e"
      ]
    ]
  }
}